710FDC00000300000000
400003C0004400001003
040405D004000341C370
00D15000000000000000
0000000000CC00C3F0C0
440C0040000000000000
3C0000000003F3F33400
000004F030000000003C
00000010010003000000
00000000003000000000
00000000000000000000
00000000000000000000
44000000C00744C70CC0
570010011C0000000411
00033F00311141043011
410C10C0000000000107
00004304000000400003
04000000010000C01F00
00D55000000100000005
000010F000000013F0C0
000C00000000000000C0
40000000000300000400
00000003100100010030
00000000011000000000
000C0000400000000000
00000000000003000000
000000000000000000C0
50000000D03400C01FC0
570040050C0000000015
00000000400041043000
00000000000000000000
00000000000000000000
00000000000000000000
00000000000000000000
00000000000000000000
00000000000000000000
00000000000000000000
00000000000000000000
00000000000000000000
00000000000000000000
00000000000000000000
00000000000000000000
00000000000000000000
00000000000000000000
00000000000000000000
451FDF00000000000100
50555004040000000540
44004110004000C01304
10D55000000000000000
0000000C0000000000F0
000004550000000000C0
000000000003C3C00400
00010000000000000000
C0000000040300000000
00000000000000003FFF
00000000000000000000
00000000003C00000000
00000000D004443010C0
577010C1100C00000011
0000000001004104F10D
