D6C
E83
C43
C44
C94
D13
F77
0AD
C71
BC6
36C
C54
3CE
40D
104
AF3
4C9
17C
3F6
F49
240
ED5
337
F49
D35
F7C
B3D
D33
48F
FB8
BF0
FC6
3AD
1B7
E6F
CF0
C7A
BB9
041
B81
B0E
07E
437
376
371
CC6
178
C93
D05
C84
CC8
04C
FAB
00D
277
FFF
137
4CE
C3B
18F
EBC
C0E
DC5
4FE
C90
435
DFB
E33
BC3
44E
515
EC5
140
2CA
0ED
0B7
E4F
D7D
409
4BC
D07
3D2
D90
1ED
C71
BC1
F40
E02
CF9
D7A
DCC
3F3
C3E
D53
009
EAC
C7C
486
3F4
F78
081
0AF
F0A
373
F4D
313
DEF
1D2
272
C89
4AC
44C
F52
EF6
FB3
C75
104
D95
24A
32D
B06
17C
0AE
FB3
439
DFC
139
E39
ECB
4AB
30C
50E
250
10A
0C9
D7A
C08
0C7
2B9
B12
D73
14F
CFC
0FD
176
3AF
FD2
410
547
F8A
EF4
FEF
B82
E0F
3FA
142
272
1BC
273
27D
3C7
E73
E84
27E
C33
EC6
37A
F05
13C
07A
C06
137
F81
B10
F49
02E
C2B
F8B
449
08D
37B
052
F8D
F0C
18D
26D
F39
F07
D75
CB9
D53
13C
485
37B
080
E76
075
430
BC5
FEE
B95
E09
C3A
AD3
513
F38
E46
E77
3D3
44E
53B
C52
1B4
273
086
17E
1CA
C6B
18F
288
44D
C8C
3BA
C88
EEC
BD1
30C
DCB
400
0F8
E06
249
B05
4CE
009
B8E
27B
32F
3C2
FF4
C05
FBC
C35
102
F09
2B6
002
B07
E55
406
138
D7D
DD3
D4B
B0E
C54
FD4
DCB
D0F
DCC
3AD
E8A
075
EAC
D3E
20D
3B7
DF9
202
0D2
C78
546
3C0
CB8
BC1
50F
478
547
B73
447
CBE
BB9
334
3C7
186
D3D
393
3B8
F4B
F53
336
CCB
B32
E92
1F8
DF0
F7B
0BD
CC1
D53
C36
1CB
D86
2C5
B07
251
E08
504
C81
CC8
00A
141
22E
18F
F52
28F
EB9
F71
305
240
374
411
CBB
E8C
1CF
C01
EC9
F78
084
2B2
1C0
38A
BB7
137
FFF
102
ACA
24A
C06
50D
476
C8C
32E
CD1
E81
2C9
C50
1C5
47B
437
50D
B2E
23E
D49
E03
1C0
2BC
20B
FC9
DD3
