F03FFCC730C0C01C033031C00CCC00C4
5305044C134F4C34011F13400444034F
00000000000000000000000000000000
5315404C134F4C34011F13400444037F
C10F000730C40410033D01000CCC0135
010F30C430070411003C01000CC00135
003C0000100300000000000000000000
00000000000000000000000000000000
F03FFCC330C0C00C033030C00CCC00C4
0310C040000000000000000000000030
00000000000000000000000000000000
5315504D134F4C34011F03400444034F
00000000000000000000000000000000
01334001000004000004000000000040
5315044D104F4C34011303000444037F
C00030000000C0000000000000000000
00000000000000000000000000000000
00000000000000000000000000000000
00000000000000000000000000000000
F13FFC0730C4C410033D31C00CCC0135
5315044C134F0C34011F13400444034F
F03FFCC331C0C40F033030C00CCC00C0
5315404D134F4C34011F13400444037F
F13FFC0330C40410003D31C00CCC01F5
4315404D134F0C34011F13400444034F
F03FFCC700C0C00C003131C00C0C00C4
00000000000000000000000000004000
00000000000000000000000000000000
00300000000000000000000000000000
00000000000000000000000000000000
00000000000000000000000000000000
00000000000000000000000000000000
00000000000000000000000000000000
F03FFCC330C0C000033030C00CCC00C0
00000000000000000000000000000000
00000000000000000000000000000000
00000000000000000000000000000000
5305544D134F4C34011F13400444034F
00000000000000000000000000000000
00000000000000000000000000000000
F13FFCC730C4C41C003C31C00CCCC1F5
F03FFCC330C0C01C033430C00CCC00D5
00000000000000000000000000000000
F03FFCC730C0C000033070C00CCC00C4
F03FFCC330C0C01C033031C00CCC01C5
00000000000000000000000000000000
00000000000000000000000000000000
5315544D134F4C34011F03400444037F
00000000000000000030000000000000
5315444D134F4C34001F104C0444037F
00000000000000000000000000000000
00000000000C0000000000000000000C
00000000000000000000000000000000
00000000000000000000000000000000
00000000000000000000000000000000
00000000000000000000000000000000
00000000000000000000000000000000
5315544D134F4C34011F13400444037F
00000000000000000000000000000000
5315404C134F0C34011F130004440370
F13FFCC730C0041C003D31C00CCC01F5
F13FFCC331C0C00F033030C00CCC01C4
00000000000000000000000000000000
F13FFCC730C0C41C033131000CCC01C5
