00000000000000000000
00000000000000000000
00000000000000000000
00000000000000000000
00000000000000000000
00000000000000000000
00000000000000000000
00000000000000000000
00000000000000000000
00000000000000000000
00000000000000000000
00000000000000000000
00000000000000000000
00000000000000000000
00000000000000000000
310FDF140000000000C4
00400000001000040000
14004054010043340CC0
10C01500000000003000
00301003C0C3000300F0
10C00100000000000C00
F30000C00003CC300000
00000100000000000000
C00000010C3000000000
00000000000000003FFF
00000000000000000000
00000000000000000000
00001000040103F40CC0
133000C0000000000000
00033000001004100001
00000000000000000000
00000000000000000000
00000000000000000000
00000000000000000000
00000000000000000000
00000000000000000000
00000000000000000000
00000000000000000000
00000000000000000000
00000000000000000000
00000000000000000000
00000000000000000000
00000000000000000000
00000000000000000000
00000000000000000000
30500000000000000005
5C154C0000010C001440
04030010444D10110301
15D55000000000000010
000040000000000400F0
0103C051000000010000
0000000030C303C0C400
0000000030000000000C
00000000050000000000
00000000030000000000
00000000000000000000
0000030000CFF00003CF
40C0400000C4470300C0
473010C040FC0004C410
00003F00F1514104FC00
