00000000000000000000
00000000000000000000
00000000000000000000
00000000000000000000
00000000000000000000
00000000000000000000
00000000000000000000
00000000000000000000
00000000000000000000
00000000000000000000
00000000000000000000
00000000000000000000
00000000000000000000
00000000000000000000
00000000000000000000
D00004C0000000000300
0333C400010000C00001
1C00037C00070D000000
3F703F00000000000030
400000003000003C3050
001100C0000000040414
C1000000000041001005
00000003000000000003
00000000000000000000
00000000000000000000
00000000000000000000
00030540000110000011
C000C000000CFC1C0030
F103C00C0010000C4030
0001110010C3C30C4007
10F4350000000003030C
303000400C000C003CC1
0C000C000CC0000000C0
00000000000000000000
00000000004000010000
000440C3000000000000
C0000000100010000C00
000000301000000000C3
400000000C0000000000
00000000000000001555
00000000000000000000
00000000000401000000
0000C330301CC1100400
F000000C045414007030
000005000000CF3C5400
410C0F033300000000C0
00100000000000000003
43000000000100F01CC0
00D55000000004000304
0C00103300104C03C000
00C000000000000000C0
00000C0000C000C30000
00000300000000000000
00000300001000030C00
00000003C00C00000000
00000000000000000000
00000400000000030000
14001000000000C01FC0
54704000000000000001
0000000000000000000D
