00000000000000000000
00000000000000000000
00000000000000000000
00000000000000000000
00000000000000000000
00000000000000000000
00000000000000000000
00000000000000000000
00000000000000000000
00000000000000000000
00000000000000000000
00000000000000000000
00000000000000000000
00000000000000000000
00000000000000000000
704C1FC0000000003C05
001040340000C03C0000
07004510004003000001
15D55000000000000300
300000000000400330F0
0000C440000000054030
0F4000000000F3303400
00010C00000000000030
C000000C150000000000
00000000003000003FFF
00003000000000000000
04000F00300F030C0300
000010000004433700C3
440000C540FCC004C010
00033F3031504514FC00
00000000000000000000
00000000000000000000
00000000000000000000
00000000000000000000
00000000000000000000
00000000000000000000
00000000000000000000
00000000000000000000
00000000000000000000
00000000000000000000
00000000000000000000
00000000000000000000
00000000000000000000
00000000000000000000
00000000000000000000
30000000000300000500
40504334001034001453
07130110400000001040
15D55101000000000400
00001000000000C010C0
100C0451400000000030
3C000001000300003440
00040040300000000000
C0000000051300000000
0C000000300000030000
0000300C000000000300
04100300000CC0C0003C
00000000D034500011C0
533100C4103CC000D400
00000F300050451430C1
