D30030C0000000000C10
033C00000000C0000301
000000010310010C1003
3F7FF000000000010000
0000000000000C003050
00000C0C000000000401
15000000000001400004
00033000100300C30000
40000330000100000000
00000000000000001555
00000000000000000000
330C144033305033C015
C0000000000000033330
FD030040C004000C0003
000101000C0C030C0003
00000000000000000000
00000000000000000000
00000000000000000000
00000000000000000000
00000000000000000000
00000000000000000000
00000000000000000000
00000000000000000000
00000000000000000000
00000000000000000000
00000000000000000000
00000000000000000000
00000000000000000000
00000000000000000000
00000000000000000000
00000000030F30000000
00000000000000000000
00000000000000004000
00000000010000000500
00000000000400000000
00000000000030C00000
104000F0000004000000
00000100400000000C00
0000040C000400000000
00000000000000000000
00000003000000300000
00000000000003000000
00000000000030000003
04004004000000000000
00000000040000000000
00500000000000003044
13144030000400301440
040041D004410000004C
15C00000000001000000
F000000000C0000000F0
04000451000000000003
3C00000000F330003400
0000300030C00000003D
00000000054300003000
00030003000000000000
00003000000000000000
100C0F0000FFF0000330
400C444014345000C1C0
00000CC0403C3F00C014
00003F0030144514FC00
