00000000000000000000
00000000000000000000
00000000000000000000
00000000000000000000
00000000000000000000
00000000000000000000
00000000000000000000
00000000000000000000
00000000000000000000
00000000000000000000
00000000000000000000
00000000000000000000
00000000000000000000
00000000000000000000
00000000000000000000
00000000000000000000
00000000000000000000
00000000000000000000
00000000000000000000
00000000000000000000
00000000000000000000
00000000000000000000
00000000000000000000
00000000000000000000
00000000000000000000
00000000000000000000
00000000000000000000
00000000000000000000
00000000000000000000
00000000000000000000
354C1F00000000000001
0C000000C000CC000033
040370C4004000050034
00D55500000000000000
0000000003000003C000
00C0C000C00000000000
0000000000003CC00000
0000003030003000003C
000000000000C0030000
000C00C0000000000000
00000000000000000000
00000400003C00000000
44C01411000040F71CC0
5030000100000000C015
00034F0405544000F00D
315C1300000000040005
431440340414CC701003
04004014404D00050331
15D55000000000000400
0000000CC0FC0007F0F0
5400C440030000014000
700000000000FC00F403
000000CF300C0000003C
C0000000050300000000
00000000000000000003
00000000000000000000
00000000000300000300
40C05440000447F70CF0
533150040CF10000C411
00037F0031530104F10C
