00000000000000000000
00000000000000000000
00000000000000000000
00000000000000000000
00000000000000000000
00000000000000000000
00000000000000000000
00000000000000000000
00000000000000000000
00000000000000000000
00000000000000000000
00000000000000000000
00000000000000000000
00000000000000000000
00000000000000000000
00000000000000000000
00000000000000000000
00000000000000000000
00000000000000000000
00000000000000000000
00000000000000000000
00000000000000000000
00000000000000000000
00000000000000000000
00000000000000000000
00000000000000000000
00000000000000000000
00000000000000000000
00000000000000000000
00000000000000000000
311C1F00000000010004
40504007040000400043
040044D4044C0001C34C
10C55000000000000000
F00000000000000000F0
000FC4010000000100C3
4C000000000303033400
00000003300000000000
00000000014010000000
00000000000000000000
00000000000000000000
00100300000F00000000
00C045110034403700C0
54004CC400CCCC04D415
00037F3000404104300C
005F1C00000000013004
41554000040400041543
0400041144010000C001
10D55500000004000000
0000000C000C00D000F0
040015550000000040C0
0C000000000003C03000
00000000000010000000
C0000000410000000030
0000000000C000003FFF
00000000000CC4000000
00103000003C000003F0
10004000100454031000
040C00C000FCC000C411
00034F3000504410CCCD
