04500000000000000C00
03145034004000300140
041045D4000C00410340
15D55000000000000000
0000000000C00000C0F0
0003C4050000C0010000
C0000000000033003403
0001C30300000000033D
00010000050310000000
000C0000000000000000
00000000000300000000
00000F0000C30010100C
00C05511043454033033
0000000040FC0F34D014
00007F0030104104FC00
1CC00000000000001300
3100004000000C000000
0C0000000003000C0400
000000000000C0000030
00000000000000000000
00000000000000000000
14000000000000010C00
00040C00100001000003
1000000403C000000000
00000000100000000000
00000000000000000000
00000C00001400000000
C000C0003410C0400400
30000000000400004030
0000050000300F3C5400
1DC000C00000000000C0
3DFCC01C0C0003173CCC
0C010030C30001F01403
7F7FFF0000000000000C
00000010000000000055
00000CF3000000001010
000000000000415DDC00
1000000C000000000000
003003300F0000000000
00000000000000000000
00000000000000000000
00000500004450000010
0040C303001FCC101401
C1000000C00010004030
000145000CCCC30C1000
410FDC10000001000000
40000300000040000000
40000000000000C41300
00D01100000000000300
030000CC03C0000330C0
00000000000000000000
00000C000000C0040000
00000000000000000000
C0000000000000000000
00000000000000003FFF
00000000000000000000
00000000000000000000
0000000000C040C01CC0
57411004140000000000
00030030010000000001
