00000000000000000000
00000000000000000000
00000000000000000000
00000000000000000000
00000000000000000000
00000000000000000000
00000000000000000000
00000000000000000000
00000000000000000000
00000000000000000000
00000000000000000000
00000000000000000000
00000000000000000000
00000000000000000000
00000000000000000000
34501000000003003D34
13555004030400300570
04030514050100400341
15D55000000000000000
0000000C00C01000F0F0
04030155C0C030040000
0000000030C3C3003400
0000FC03300000000001
00000100040010000000
00000000000000000000
000000000C0000000000
0000000000FF30000000
40C014000434404300F0
430000004CFC0300C555
0000730030404104FC01
DF003400000000000F00
30FC0000000CDF0030C1
0C000C000303C10300C0
003FF300000000000030
00000000010130003000
0C0000C3000000000040
35000100007001510000
00000000D00000000304
400000003F0C00000000
00000000000000000045
00001000000000000000
00003100000050000014
0030C303700CC1000000
FDC3C03C0414040043F0
000105C00333CF3C5007
10C004C0000000000003
030000000000C0000001
CC4400000000000C0000
3F7FFF0000000000000F
00000000000040310050
C0000FC0000000000040
040040000000014D0000
00000000100000000000
00000000000000000000
00000000000000000000
00000000000000000000
00000540000140000054
00000000400C00000740
FDC03000C00440000030
000101100300C30C0447
