130030C0000000000000
00000000000C04000001
0C0000000000010C0030
3F400F00000000000000
000000000000000C0040
0C400000000000000040
40000001000100000000
000000C0000000000000
00000000000000000000
00000000000000000000
00000000000000000000
00C0C0400C0000030000
00000000000000103331
FD000040C00140000030
000100500300C0010443
000034C000000000000C
000C04000000C0000CC1
0C0000001F0000000000
3F7FF000000000000030
0000000001000000C050
00400033000000001100
05000000000040401000
000000C3100000000000
40000000004100000000
00000000000000000000
00000000000000000000
0CF3300000C000003000
F003000000000000000C
01030000F400000D0003
00010000003000000000
00000000000000000000
00000000000000000000
00000000000000000000
00000000000000000000
00000000000000000000
00000000000000000000
00000000000000000000
00000000000000000000
00000000000000000000
00000000000000000000
00000000000000000000
00000000000000000000
00000000000000000000
00000000000000000000
00000000000000000000
00000000000000000000
00000000000000000000
00000000000000000000
00000000000000000000
00000000000000000000
00000000000000000000
00000000000000000000
00000000000000000000
00000000000000000000
00000000000000000000
00000000000000000000
00000000000000000000
00000000000000000000
00000000000000000000
00000000000000000000
