00000000000000000000
00000000000000000000
00000000000000000000
00000000000000000000
00000000000000000000
00000000000000000000
00000000000000000000
00000000000000000000
00000000000000000000
00000000000000000000
00000000000000000000
00000000000000000000
00000000000000000000
00000000000000000000
00000000000000000000
00000000000000000000
00000000000000000000
00000000000000000000
00000000000000000000
00000000000000000000
00000000000000000000
00000000000000000000
00000000000000000000
00000000000000000000
00000000000000000000
00000000000000000000
00000000000000000000
00000000000000000000
00000000000000000000
00000000000000000000
100034C000000000130C
00F000000100C0040CCC
0C000F7003C40CC00100
7F703F0004003000000F
0000000030000C0C0055
000130F3000000000011
01000000004041501C00
00100000100000000000
000000003F0100000000
00000000000000000000
00000000000000000000
0000C500000010000014
0040C003401CFC1C0040
C100030CC010000C7000
0001154010F3CF3C5003
75401FD0400300000000
0C100030000000000003
470045C300400CC01340
10D54500000001C00000
0000100000000003C000
000CC000000000000C30
4C000000000030033000
00013000300000000000
00000000010300000000
00000000000000000000
00003030000000000000
00000400000000000400
000040000034003310F0
540000040C0000F4C001
00003F00004040003001
