0E2A6327
19A64D39
1A3BE27B
0649B1F6
290B124F
32595979
0F09AC52
24A722AA
35057E8E
29C73A09
086C41B4
2F689AD9
24BAF37E
19388034
0041152E
38E095B6
039E7AF6
35508399
1A2C5A8E
32F91333
115F13B3
0AC37601
16AAD678
240D0B5A
2DDE9CF2
0EA985A8
27D125D7
1C9E5474
126350E8
39F7B0F6
32C291D2
17657574
