36
3E
07
10
02
00
1E
03
09
12
3E
37
12
36
02
0B
0F
07
12
01
31
39
31
36
12
11
07
32
30
11
0A
10
3A
00
16
01
32
38
10
0E
11
13
0F
36
3B
16
06
30
02
02
32
1E
08
30
39
0F
3F
16
39
38
33
1F
1A
09
39
3D
0E
0E
3A
39
09
01
12
37
07
0A
3E
0F
31
17
29
30
13
02
12
09
0A
01
16
11
35
3B
39
08
02
0D
2A
16
32
36
08
35
30
37
3A
37
0E
37
06
38
10
11
17
16
3E
01
09
11
0F
29
33
01
32
0F
31
12
06
3E
03
00
0D
10
12
1A
06
08
3F
12
38
17
2A
10
12
02
31
3F
09
11
30
09
11
3F
36
11
1D
07
16
3A
02
30
2E
3F
15
3F
33
30
0B
10
07
39
1A
0D
36
16
0E
3A
0F
12
08
12
00
0E
39
11
29
01
30
31
00
11
2A
37
35
39
1F
12
0A
02
0B
0F
3A
02
28
2E
2A
30
3A
31
09
00
3F
02
06
37
01
16
31
3A
19
30
3F
10
39
3D
29
01
15
11
39
37
18
12
32
3F
00
09
38
3E
13
1F
37
30
3A
28
36
0E
39
19
02
39
3E
1E
39
01
12
30
3F
00
36
11
2A
11
00
13
09
29
10
09
17
16
36
01
0E
02
15
39
11
2F
2F
37
0E
10
28
18
39
10
37
31
2E
18
00
06
00
17
3A
0A
31
10
36
37
39
3B
16
38
0F
3E
36
12
00
07
3E
31
10
00
10
3D
01
00
1A
38
01
00
16
3F
39
38
31
32
01
0A
31
36
3A
3E
16
0F
09
3D
3B
32
09
39
36
16
30
3F
31
0F
00
11
3A
3A
0F
09
0E
0A
36
0F
01
01
2A
0E
37
17
36
0A
28
37
35
39
10
08
17
07
17
09
36
16
28
3F
36
19
31
0D
19
01
35
39
12
10
09
37
0D
2A
39
07
3F
00
3F
38
31
0A
36
09
2F
16
0E
3E
37
11
02
10
2D
12
17
10
36
3E
0E
0A
09
18
01
19
07
0A
3A
09
12
12
07
30
12
29
35
3F
31
16
18
0B
30
3E
30
1A
39
39
12
3B
1F
3E
07
39
07
05
01
37
32
01
0F
35
01
1B
00
36
07
0B
2A
11
38
39
1E
0A
3B
01
07
0A
08
33
02
31
30
01
07
3F
11
2E
39
32
2F
0E
32
38
09
09
18
02
36
0B
11
38
3E
35
39
10
13
07
38
0D
0F
17
07
06
08
3A
0E
16
0E
0E
11
01
2E
10
0A
01
29
02
2F
32
2A
3E
32
0E
02
03
3A
1F
38
3E
01
1E
11
15
38
15
0F
30
36
0F
08
01
17
2B
09
13
07
10
39
02
19
2A
36
37
13
30
38
0E
32
11
2F
30
2E
09
06
02
01
0F
0A
2D
3F
3E
07
16
0D
0A
33
29
01
0A
30
0D
36
31
00
33
06
11
39
06
3E
30
07
31
1A
37
3A
12
02
32
37
31
00
36
0E
31
3F
3B
00
1F
06
2E
03
17
3D
06
2F
35
06
09
3A
3B
0F
09
0A
3E
0E
11
07
30
07
1A
30
0A
12
00
11
09
06
17
30
12
0D
09
12
30
10
00
37
30
3A
13
3A
08
00
3E
09
28
32
1A
28
37
31
39
06
3D
2F
2E
17
0A
02
28
2E
03
37
3F
01
11
07
15
36
06
3F
35
3F
0F
01
09
39
32
3B
3D
07
11
3A
01
0D
09
01
12
01
0E
35
0E
02
13
3D
02
17
12
08
01
3E
38
36
09
11
10
32
37
3E
17
10
12
36
10
30
06
3A
0F
1F
17
09
30
3A
02
3E
35
31
0E
31
0E
3A
30
0A
0A
06
07
0A
08
31
09
3E
00
07
05
16
3A
0F
37
35
0E
29
0E
12
30
3F
00
0E
17
38
3A
31
30
36
30
00
1F
31
02
10
00
3E
16
3E
0E
02
36
0F
0B
02
1A
37
3E
0F
12
2F
01
01
33
02
35
29
3A
2A
3E
08
3A
37
08
05
3A
00
07
29
3D
39
2A
16
17
09
15
37
19
01
09
01
0E
36
32
1F
3F
08
06
01
31
38
36
38
38
16
2F
37
18
3F
09
11
0D
38
37
16
3A
36
06
2A
1F
30
02
05
31
39
0A
3F
18
3F
2E
35
28
2B
12
06
38
0E
3A
2F
00
15
3F
32
37
09
39
32
10
31
36
00
32
08
06
06
17
01
30
12
08
11
17
29
16
08
02
16
09
32
33
30
02
0F
31
31
35
3A
1A
3E
3A
33
16
03
16
2A
06
31
16
01
07
30
36
0D
0B
3F
0F
08
37
39
1E
0E
09
01
30
06
06
30
17
0F
36
00
39
0F
3E
0A
3E
38
3E
1A
00
06
05
08
37
01
0E
37
39
13
09
10
3A
16
0A
32
0E
3F
16
00
08
3E
12
1A
11
1E
32
11
32
06
19
3E
39
31
06
0A
0E
36
2A
07
19
30
29
36
0A
3A
35
11
01
3F
08
38
0E
11
0D
06
3E
0F
3E
08
02
1F
3E
1D
17
2B
09
38
0E
0F
3A
18
02
01
16
35
3F
35
38
16
00
01
09
32
0F
28
10
2E
17
0F
02
2D
0F
06
2B
37
12
0A
2A
15
09
01
3E
0F
39
18
09
00
3D
32
1F
15
13
3B
06
0D
3A
2D
05
1D
30
08
16
02
09
11
01
37
13
3B
01
02
30
02
31
10
10
3F
3E
18
06
39
30
1D
2A
12
00
09
19
31
3F
0D
06
37
0E
19
06
28
00
09
0E
08
07
01
02
31
2A
32
02
38
07
11
0F
37
17
36
09
36
31
39
0F
09
05
37
36
31
32
09
10
06
0A
17
32
17
18
0F
16
36
11
00
37
2F
1E
01
01
07
30
09
0A
02
31
12
32
0A
17
09
05
30
3F
31
02
35
17
12
15
06
32
01
0E
3E
00
08
0E
28
09
31
3F
07
10
0E
11
3D
2A
35
05
02
0A
11
0A
06
3A
36
09
10
38
00
00
0B
00
37
39
3F
05
07
16
3A
08
38
32
3B
00
3F
12
37
16
38
02
3A
13
00
09
37
37
36
12
08
36
30
38
2F
2B
10
39
16
0F
02
28
3F
10
39
39
28
3F
37
30
3E
11
30
10
2F
08
0A
38
0A
01
30
1E
3E
09
28
07
37
0A
28
32
07
11
37
06
2A
2E
35
3E
32
01
0A
32
3A
0A
02
12
11
10
2F
0E
32
10
0E
16
00
33
30
3A
10
37
39
05
3A
1E
07
00
33
00
00
05
2B
06
36
16
3E
38
00
00
01
01
00
05
05
17
12
3B
30
2F
11
17
06
03
08
07
02
32
35
2A
0E
1F
3E
0A
02
32
1E
32
17
12
1E
3E
02
03
0F
0F
3B
1A
17
2F
03
18
2F
05
09
35
2A
02
08
0A
12
38
31
0A
1A
0D
37
36
00
07
3A
06
16
08
05
10
3F
02
30
3D
12
32
30
31
2E
0F
36
35
16
35
16
01
05
07
06
3A
38
0F
2E
10
39
02
00
0B
10
0F
39
18
3F
36
11
07
16
0A
05
3E
28
07
33
0F
31
3D
35
38
05
33
08
0E
19
00
02
16
09
08
37
12
3E
39
36
00
03
10
39
0E
09
38
30
36
0E
3F
39
3A
32
00
16
2E
3A
01
0A
39
36
09
02
0F
31
30
3D
17
29
18
29
02
17
0E
05
1F
37
28
15
32
3F
06
01
2B
02
0E
31
09
15
2E
31
38
00
10
36
2A
0F
0F
2F
1A
2E
05
2F
2E
06
01
00
06
33
02
2F
36
3A
36
2D
1D
17
16
0B
01
0A
07
12
37
15
3A
32
16
02
00
32
3A
06
1F
2A
07
37
33
0B
30
38
3D
0A
39
00
08
39
0E
0E
05
3E
3F
32
3E
0F
2F
32
18
29
12
11
3A
10
3A
37
3A
38
2F
02
05
36
32
17
36
17
05
3F
0E
3B
32
00
37
0F
3E
3D
12
28
3E
05
0F
08
03
28
16
09
0A
35
39
06
16
30
2F
0A
39
06
06
31
1E
31
3F
39
36
00
3D
0F
02
31
00
3E
3E
3E
10
03
33
3A
01
37
02
01
16
09
15
1A
05
06
38
36
07
09
12
32
29
17
02
06
38
30
08
18
11
0D
12
01
31
39
3E
16
02
12
0F
01
1F
09
12
05
17
36
00
35
35
39
3E
38
17
06
11
3F
05
0A
13
31
0F
17
35
12
32
3E
10
0A
02
0E
1E
09
06
01
36
17
05
2F
1E
0F
02
06
08
00
3A
00
3A
00
10
00
10
3A
16
06
10
08
30
01
00
3F
11
3A
1F
16
08
38
10
01
32
31
02
16
11
00
29
08
05
00
0B
00
3F
38
39
16
01
02
12
37
1A
10
0A
38
1D
12
39
1F
0A
2F
01
3D
2D
32
01
01
17
06
32
05
17
01
12
31
1D
0F
31
3E
10
06
30
31
01
3F
12
30
05
09
30
1E
1E
36
02
17
03
0A
06
32
0A
08
02
35
2A
0F
39
07
3A
01
3E
09
3E
39
17
06
12
17
01
32
00
09
02
29
12
38
17
01
05
01
30
3B
31
11
15
38
38
3F
37
01
31
30
0F
32
2A
17
0F
36
3D
03
36
36
29
3A
02
32
19
28
33
31
3E
07
3D
1D
0A
16
38
3D
00
0F
39
17
38
3F
3F
02
33
36
01
31
08
02
08
16
38
31
07
1D
3F
0B
12
07
09
08
3F
38
30
3A
36
2E
09
38
06
0F
30
06
0A
11
39
12
3D
3E
12
0A
0F
11
08
08
37
00
17
0A
0F
38
38
35
12
39
3E
10
10
11
17
16
1B
16
36
3D
05
02
00
30
12
03
30
12
31
11
10
1D
36
37
11
1E
2D
0E
12
35
36
0E
3F
06
12
15
3A
38
02
13
31
1A
1E
0A
2A
2E
02
12
03
32
11
3E
13
3F
01
18
28
11
31
32
00
0A
36
06
2B
08
01
2E
05
3E
01
08
0D
12
01
2E
3A
17
36
0F
05
00
36
00
0A
3B
2F
38
0F
12
2A
3F
00
39
02
36
38
12
11
0D
31
0E
10
2A
3F
39
38
09
0E
00
08
09
00
3A
10
02
0E
33
19
08
3E
11
2A
32
3E
33
0B
3F
35
11
00
08
10
02
30
29
00
31
32
1A
17
3F
36
11
1A
39
19
3B
12
19
3A
37
06
06
00
36
28
02
13
0E
32
07
3A
37
1B
06
12
16
06
3F
29
19
01
37
16
1B
12
08
3A
1F
07
2A
12
32
00
28
16
36
0E
0B
11
09
0E
0E
2B
1E
08
15
07
33
1E
3E
39
19
39
07
07
13
0F
07
08
3F
37
2A
36
0B
32
11
2A
39
00
0F
0E
39
37
36
3A
0F
39
1E
12
38
06
3A
02
09
3E
0E
13
1A
17
16
3E
0D
32
29
11
02
00
2E
11
02
08
2E
11
0F
29
08
09
39
3A
06
02
1E
18
11
0B
32
08
32
33
35
29
05
16
36
11
15
06
06
16
28
3F
37
10
00
30
11
37
32
0A
07
00
38
36
36
15
02
0A
09
3F
15
08
3A
3A
0A
11
33
38
31
16
08
13
12
03
37
09
17
3B
01
16
01
32
38
32
30
38
01
3A
3B
12
02
0E
1B
0E
19
19
19
37
01
37
08
08
08
15
33
07
15
09
0F
07
09
02
07
17
32
30
3E
0E
00
3D
07
00
30
18
33
0B
0E
01
11
01
30
3F
12
00
37
3A
38
01
03
08
36
3D
17
16
37
16
36
3E
32
28
36
11
37
09
05
06
17
07
30
10
3A
0E
1E
32
16
32
30
02
0A
36
32
07
1E
32
00
37
06
3B
18
13
32
38
06
3A
00
16
0F
17
11
03
3A
36
30
10
3B
09
10
3A
0E
00
17
10
09
38
2A
2E
08
1F
0F
3E
0F
12
38
19
37
31
10
3E
19
1E
12
32
09
18
3F
28
07
1E
3E
01
1F
1A
16
12
35
15
0E
39
28
32
0F
38
07
3F
37
0F
36
09
38
11
3E
0A
0F
00
0A
01
07
12
06
12
0E
33
31
08
08
38
3B
3E
10
0E
1A
36
3F
13
16
32
16
02
3F
06
0E
38
01
17
17
36
38
0F
37
12
08
3A
12
06
3B
17
13
2A
31
37
03
32
17
37
3F
0B
36
10
31
2F
12
32
06
0E
37
10
1E
35
12
11
39
00
10
38
3F
00
3E
38
38
3E
15
0F
30
37
30
0D
16
11
01
01
3A
2E
32
0F
12
0E
3A
06
3E
02
17
1A
0E
01
16
1A
38
13
3F
36
0E
13
16
00
08
0D
0E
36
0E
28
19
3F
2D
39
02
1A
17
1A
1E
3F
17
01
07
39
08
12
0E
3E
13
38
06
30
07
3E
3E
06
3E
32
06
29
06
31
0A
3E
3E
11
3A
3F
3A
3E
36
3A
36
3F
1A
0A
00
13
38
32
3E
00
37
3F
0A
12
3E
38
2B
12
36
08
03
0E
32
10
3F
16
1A
32
0F
1E
19
01
09
0A
13
06
32
0E
3F
05
0E
1E
08
3A
10
10
18
0E
0E
29
3F
1A
10
3F
01
37
3F
28
0F
39
38
08
17
2A
37
09
31
32
00
0A
00
08
06
1A
31
36
32
2A
31
17
36
18
09
0A
00
12
1A
11
16
36
30
02
31
31
11
0A
31
17
32
06
3E
32
3D
02
2E
38
38
17
35
3E
0E
39
30
0E
38
0E
10
30
10
0E
3E
12
01
06
17
36
01
37
0E
11
1B
0A
37
3F
16
37
01
3F
3E
12
36
2F
11
3A
0F
16
02
3F
02
29
1E
0F
1E
18
31
38
10
2B
1E
3A
11
39
3B
11
38
12
02
37
08
39
17
1E
3F
01
36
0F
0F
0F
30
31
10
17
07
07
37
00
37
12
06
19
31
30
01
31
0E
12
32
0E
39
08
3D
37
08
01
0A
0E
01
05
01
11
37
2A
31
13
16
3D
30
3A
07
36
33
16
00
06
1B
01
16
07
00
13
01
2F
37
11
36
02
18
06
16
15
0E
18
09
17
1E
36
08
05
05
31
0F
05
39
02
11
13
07
17
3E
1E
37
0A
01
36
2F
02
09
0E
06
30
37
07
0F
37
02
1A
36
12
30
0F
0B
16
06
02
3E
30
00
37
3E
33
08
11
31
30
07
30
37
06
32
36
07
0E
0A
30
28
02
36
36
35
30
09
12
03
12
07
06
37
00
09
10
09
12
3F
3A
37
32
31
0F
12
31
3E
32
3E
03
37
31
3F
3B
10
0E
3E
30
2E
03
31
17
3D
12
0F
36
1F
0B
32
3F
15
17
37
11
08
39
00
0A
36
11
0D
0E
06
3E
0A
3E
07
3A
3A
38
11
30
0A
37
00
1B
3A
00
1F
17
37
09
15
37
11
0F
13
38
30
33
18
10
00
06
1A
16
11
12
08
00
17
01
3E
32
36
2A
12
10
10
01
32
3F
17
05
07
0F
02
35
17
32
00
01
17
18
3E
12
37
32
01
0B
06
32
11
32
09
12
0F
2E
08
1E
0E
16
00
10
3D
3D
10
36
06
11
3F
1E
38
07
37
37
00
32
36
35
30
13
09
15
11
10
09
00
16
28
39
10
39
32
32
32
08
0A
06
16
00
37
2A
3D
00
38
10
30
06
33
30
12
01
12
06
17
36
0A
19
0D
3F
00
39
16
0A
3A
06
07
12
0B
2E
06
31
09
3E
0F
0F
1F
10
0A
02
07
1F
12
01
3A
00
19
3D
36
08
0F
08
32
39
00
36
38
3A
1A
29
01
0A
3A
36
01
32
06
02
0E
37
09
08
09
2F
0A
2F
10
38
31
15
2E
03
16
30
2A
0E
38
3F
2A
29
0D
16
32
16
06
31
31
39
17
02
3F
17
3F
16
2F
16
15
31
0F
17
3E
10
1E
1F
29
07
37
0E
00
3F
32
11
02
00
0E
32
12
16
28
02
19
08
29
07
3F
0D
07
0A
13
3A
06
32
32
30
36
12
16
08
28
37
16
38
12
3E
0E
3D
3E
12
0D
3F
38
36
0F
10
2A
32
18
39
29
1A
30
0B
0E
3E
17
11
36
18
3F
38
02
16
15
02
10
13
01
10
16
39
08
2F
08
16
39
3F
3F
32
08
2A
01
01
0F
08
2F
06
00
02
39
3E
02
17
1A
30
35
11
28
36
16
01
16
38
37
0F
30
0F
0E
0F
37
09
09
35
3E
1F
15
0B
0A
3A
0E
39
08
0E
31
03
16
08
0F
29
32
06
12
30
3F
02
0E
11
07
35
35
0F
2E
09
36
29
0A
1E
0B
00
3E
30
00
0A
32
07
09
39
0E
3E
10
11
39
30
31
09
39
36
0E
37
02
3A
35
01
0F
07
08
37
05
37
30
37
0A
0A
10
29
37
00
00
05
02
30
0F
00
01
10
39
3E
3E
1E
16
08
2B
31
0F
07
3A
0F
0F
3A
30
0E
01
11
08
03
3E
2E
3D
10
06
35
06
33
10
3E
29
01
16
36
3A
3F
00
07
39
3E
05
05
30
1E
3D
12
06
08
37
36
2D
0E
0E
32
02
30
36
32
2E
10
02
33
0E
3A
37
30
36
10
0A
37
3A
3E
0E
07
12
06
17
17
17
16
0F
02
31
09
15
0F
07
36
30
12
31
17
39
15
30
1F
0D
17
06
10
0E
11
12
09
00
28
00
3E
30
39
01
37
38
3E
39
3F
0A
0F
29
11
17
38
32
12
0F
09
3F
38
3A
0F
07
0E
17
3D
13
00
18
30
06
00
35
11
10
29
0D
05
10
2F
00
33
36
0A
16
31
05
13
38
12
36
36
1F
2A
09
05
32
38
12
36
32
29
16
10
28
17
28
09
01
17
1A
30
36
17
3F
0F
18
29
2B
15
37
09
3A
0F
1D
0E
07
16
08
02
1E
1F
12
3E
0E
01
10
36
35
3F
31
10
2B
31
3A
16
07
11
3E
02
06
00
07
08
3B
0F
08
28
30
3D
3A
02
36
32
39
13
0E
39
11
09
00
36
17
1F
08
01
18
2F
38
32
01
0F
2F
3A
06
08
02
33
32
08
02
32
36
06
3F
1E
38
09
12
3E
38
2B
11
3F
37
00
28
39
35
37
3E
38
09
08
3E
18
10
17
38
0A
3D
37
3F
38
01
3A
01
37
08
3E
38
08
31
31
00
28
3E
31
31
32
0F
17
02
3E
3F
0F
05
0A
19
00
09
00
08
03
38
18
07
11
01
3F
29
37
38
17
37
3A
29
18
17
2F
3F
38
10
06
08
10
06
3E
13
30
3A
29
0B
0F
30
00
09
39
39
02
38
1E
3D
16
36
11
39
39
0F
08
31
13
3E
2E
06
03
00
15
36
03
37
3B
07
0D
16
32
0D
11
00
30
08
11
2E
39
37
0F
17
01
0E
33
0F
06
38
2F
36
3F
0E
09
02
12
3E
02
3E
30
11
30
32
35
2A
31
32
31
16
0A
39
08
0E
36
0B
11
0E
3A
37
01
3E
08
38
39
0A
11
17
39
06
3E
07
19
1F
3F
32
3F
2A
12
30
1A
1D
2E
07
02
39
3F
0E
01
16
3E
06
03
07
30
05
10
0A
33
02
1B
17
0F
31
08
11
37
3F
10
06
03
0B
0E
1F
0A
3B
00
17
30
0E
38
01
0F
29
30
15
17
02
07
0E
16
3F
3F
11
00
39
10
07
08
38
19
36
39
3E
3D
1E
12
07
30
3F
39
11
38
18
38
17
0F
11
01
39
28
02
3B
3B
16
16
38
31
31
32
06
33
38
3A
06
0E
30
16
32
2A
36
17
31
3E
02
39
38
3E
11
39
1A
06
1E
02
3A
16
3F
09
10
2A
08
1E
11
06
37
17
3E
0D
03
3A
06
2E
07
32
3A
01
0A
31
17
08
08
03
38
17
1D
08
3A
16
17
37
08
02
05
01
1A
3F
09
13
0A
11
10
3A
12
07
3A
17
07
0F
00
17
02
16
3A
06
31
02
12
2E
02
07
39
3B
31
07
06
1F
17
3E
31
02
02
0E
39
31
12
09
38
08
17
3A
02
11
1F
15
35
37
07
39
11
10
11
31
30
08
0E
37
1A
07
30
06
1E
28
19
12
3E
3E
17
0F
12
32
32
06
28
12
08
11
0E
37
32
06
06
1A
3E
07
37
17
00
31
02
12
2F
38
37
32
17
08
07
30
1E
3D
02
10
10
16
18
16
19
00
39
1B
31
09
29
06
32
12
00
11
3E
08
30
39
36
09
06
19
3A
00
02
37
35
1D
30
33
32
0F
38
03
38
0B
2D
3B
30
36
08
29
0E
29
06
31
20
3A
35
07
32
36
12
0F
02
36
06
16
3E
09
0E
32
02
3E
38
10
3E
06
08
06
01
30
0F
17
39
02
17
3A
3D
02
01
09
00
09
16
09
28
05
16
19
28
13
0D
1E
28
10
3F
02
2D
3A
30
0F
12
11
00
08
01
0D
12
09
3F
01
37
1E
36
00
0E
3F
2F
17
29
08
2E
36
10
03
29
3F
01
36
2F
08
3A
3E
28
0E
31
3A
06
07
05
07
32
12
35
3F
30
0E
0D
09
01
16
39
00
0F
10
01
1F
3A
11
32
11
3E
37
0A
1F
3D
10
38
1E
10
0A
09
03
2F
1D
00
06
3A
0A
07
00
33
17
17
31
31
32
37
10
30
0E
00
0E
2A
31
0D
0A
39
3E
3A
0E
31
07
08
17
3E
3A
38
36
39
3B
31
3A
06
12
37
06
3A
01
05
06
3E
13
12
39
00
2F
17
01
16
3A
30
2B
31
2E
12
02
3E
0A
31
10
3F
1A
31
00
36
37
30
37
3E
09
3A
09
0E
36
36
2A
2E
32
35
39
12
00
12
09
10
0A
37
3E
01
3F
08
06
0F
3F
35
39
0D
07
11
12
2A
09
07
07
00
32
0E
1E
02
29
2A
35
07
08
06
37
02
0A
3E
31
11
17
1F
39
32
3E
19
36
3D
38
3A
17
12
09
29
39
37
0F
00
07
11
19
06
01
38
37
29
0E
36
31
0A
2F
15
06
10
37
12
32
37
1A
3E
12
17
30
2E
38
17
08
3E
16
38
02
2F
08
02
0E
16
09
36
30
0A
35
31
16
02
38
16
01
37
33
37
0B
07
31
39
2F
3A
35
09
2E
3A
3F
39
00
09
09
0A
2A
31
0E
08
11
31
11
09
2B
10
07
08
33
32
39
36
06
2E
00
05
31
0A
39
0D
3B
2D
16
1E
00
3A
28
3A
31
00
31
07
39
33
37
12
1E
01
1A
09
38
2E
37
0A
33
2B
05
0F
01
36
17
3E
3B
3B
03
02
0F
38
11
1E
39
0F
09
32
08
12
09
2D
0A
39
06
11
3E
37
09
2D
11
28
39
3D
0A
02
2E
09
3A
3F
30
0F
36
3A
11
30
39
11
29
01
16
08
08
2E
3F
07
18
0E
07
09
3E
17
37
30
0B
30
1E
35
06
1D
08
2A
17
3D
0B
38
0A
08
3E
0F
10
01
07
15
05
2D
2B
2D
3B
36
37
3A
17
05
2E
3E
09
08
2B
31
3B
01
11
02
32
0F
2A
2E
29
32
3D
08
07
00
11
08
0F
17
1E
3A
3F
18
3A
28
3E
17
0B
36
31
15
00
28
1A
0A
03
13
0F
0A
0F
3F
39
01
3A
39
0A
09
28
02
3E
30
3F
11
16
0F
31
37
3E
3D
00
12
3F
07
0A
02
07
30
30
00
32
05
3B
28
00
06
1E
03
12
02
39
01
17
3B
12
32
0F
11
29
0E
15
01
3F
31
31
39
3E
39
11
3D
3A
17
01
0E
12
09
39
0F
08
17
1F
2A
2E
35
3F
01
1E
39
17
17
10
0E
0A
3F
09
36
2E
02
17
3A
10
05
17
3A
12
12
07
29
12
02
3E
0A
01
3E
10
0E
0A
32
3B
37
15
09
28
36
12
38
12
36
3A
12
31
05
38
17
06
03
02
2F
11
3B
31
31
0B
13
3D
31
07
39
17
09
17
0A
05
0F
3A
0E
11
2D
31
0E
12
10
3F
07
16
1A
3B
0E
0A
0E
3F
0F
12
05
2A
3F
0F
32
1F
06
09
0A
31
01
06
18
37
0A
07
38
06
17
17
28
3E
32
3D
0F
0A
27
38
07
03
08
32
07
10
30
3A
17
3E
31
10
07
03
0F
02
3A
3F
33
16
28
0E
09
36
32
01
0E
37
02
08
00
01
38
3B
3F
33
31
3F
3A
38
07
11
31
01
37
08
07
00
0E
0F
2E
16
32
1F
20
16
10
02
01
11
12
09
36
17
3B
36
12
32
03
01
03
3A
08
16
3D
37
00
36
28
3A
0D
11
11
32
35
02
2F
19
36
39
38
03
3D
12
37
15
0A
31
35
06
10
0F
31
39
3F
11
05
0A
01
38
3F
37
0E
06
18
02
06
2E
06
39
30
3D
12
17
3F
2D
29
3A
37
0D
17
16
32
08
01
38
08
11
05
39
00
30
3F
36
2F
32
0A
02
0E
29
06
0F
35
3A
0F
05
07
02
0E
16
3B
0D
0F
07
32
00
06
17
3F
16
0E
08
00
3F
28
01
19
32
05
0A
07
07
3A
06
37
17
01
37
12
02
32
0A
08
0F
17
01
31
18
30
0E
33
17
1F
06
0E
07
32
0A
06
32
00
09
39
2F
10
16
10
19
17
06
38
28
0D
09
32
1F
17
17
36
00
07
31
37
01
19
09
0A
37
2A
08
3F
08
0A
10
29
00
09
32
3D
3F
0F
32
09
11
08
0A
28
3F
37
12
16
3F
2E
16
0A
2A
38
36
0E
0A
3F
37
15
03
31
05
28
10
00
03
31
30
0E
10
16
03
0F
36
31
07
12
36
39
00
3A
30
3E
39
31
1D
0F
39
39
06
10
09
03
00
36
07
3E
31
02
39
36
30
2B
3A
1D
0E
31
36
30
1D
01
38
32
17
09
2E
32
00
17
02
10
39
3F
33
12
3A
01
3B
08
11
02
29
16
3A
0F
2A
00
0F
03
31
11
32
3F
18
2E
17
3B
02
38
37
39
3A
00
3E
29
10
0F
16
17
10
3A
38
10
17
32
11
0E
0F
17
12
3A
0F
17
1D
13
10
36
39
09
36
11
05
0F
39
38
1E
29
10
00
10
33
01
0E
01
06
09
31
31
10
17
32
12
38
3A
37
38
17
11
15
39
03
10
31
02
0E
29
36
38
3A
12
0E
19
02
38
12
17
36
16
16
3A
31
06
02
01
3F
3E
17
01
0A
29
19
33
00
29
07
0A
16
06
08
09
17
33
3B
3E
2F
30
1E
37
28
0F
3A
19
2F
1F
13
35
3E
11
39
31
09
38
08
01
16
09
01
32
00
0E
17
3F
3F
10
08
15
3F
0F
08
05
2B
03
10
06
08
01
06
05
0A
37
36
10
09
0B
17
10
2A
28
16
30
16
31
19
0E
2E
38
1F
0F
0E
01
1D
15
38
10
18
30
11
11
11
17
36
0A
36
0E
11
3F
3E
31
3F
02
31
3E
02
15
38
01
01
10
0F
08
11
06
39
30
01
30
13
02
2A
0A
32
19
17
32
00
0F
29
37
10
09
38
0E
1E
11
3B
2E
02
17
30
12
07
15
16
32
0E
12
0B
0F
38
01
3F
31
11
10
07
31
1A
05
38
39
0F
1A
0F
02
03
37
16
0F
30
16
3A
32
1E
07
36
37
0A
11
02
3A
10
0A
0A
3F
15
37
0F
02
1A
36
07
36
09
16
28
06
08
12
16
13
39
0A
37
38
0F
35
33
16
03
3A
28
09
07
1D
33
00
3A
10
33
00
07
38
07
0F
33
08
00
03
0A
30
10
0F
1A
10
00
1F
03
3E
32
29
13
08
0F
07
16
06
0F
16
05
12
03
17
18
09
3F
08
0E
38
2E
11
12
0A
10
17
1B
01
33
30
06
3F
3E
00
03
30
0B
39
32
39
11
33
3E
07
33
3E
17
07
3D
3F
0E
11
10
37
06
0D
0B
08
0E
3F
02
18
1B
1A
2B
0F
08
02
2B
3F
1E
02
32
0F
1F
17
33
3A
0A
01
3F
12
10
01
02
36
38
0F
0F
12
06
35
36
0F
3A
38
08
37
31
36
02
06
1E
0F
07
02
3A
12
30
32
1A
32
31
06
3A
3F
10
09
00
31
2A
3A
05
31
31
0A
1A
31
38
2E
1F
1A
32
31
10
02
13
07
3E
01
30
31
01
00
0A
16
19
00
00
10
0A
39
39
37
3E
09
2A
31
06
00
0F
3B
38
3D
37
16
3F
39
31
2F
16
0A
0F
09
38
38
01
38
0A
1A
3D
02
3E
3D
36
02
00
36
29
32
3D
31
08
2F
33
30
07
0F
00
37
3E
30
19
1A
38
33
38
35
3B
32
13
17
2F
3F
1E
31
10
09
06
38
01
3F
16
32
12
2B
3F
06
0A
07
32
31
2E
0E
3F
3F
39
3D
0E
08
38
39
1E
08
32
3F
01
0E
3A
39
13
3A
3F
02
39
0F
13
11
00
11
09
3E
01
0D
32
06
18
3F
0F
38
1E
30
13
3F
00
28
12
0E
37
11
39
36
1E
05
3B
02
3E
15
30
12
1E
02
2A
13
10
09
3B
06
19
0F
32
38
39
31
3F
2F
08
0E
3E
33
39
37
02
37
0F
11
10
02
3A
0A
17
3E
37
11
32
3F
09
0F
3F
06
01
02
03
3B
01
11
08
0A
31
32
09
33
38
0A
36
06
32
02
10
12
0D
30
3A
36
03
11
0F
3A
1E
06
08
29
0A
0A
12
03
1F
31
09
03
11
11
03
19
3B
1D
38
31
39
08
33
36
10
3F
3E
11
3A
3F
17
13
19
16
37
00
38
38
01
09
18
0D
0A
12
10
3B
11
1F
07
15
3E
12
1A
17
12
3B
39
1F
17
00
02
01
29
30
11
32
38
32
3A
0F
00
29
02
11
00
17
0A
0F
2A
19
33
3A
02
10
36
08
3D
11
33
0F
19
08
36
0A
37
07
1E
3D
19
07
30
02
3F
16
0E
08
11
12
32
30
38
10
33
08
36
06
36
08
0F
08
3F
3F
32
3E
3A
16
16
2E
1A
17
3F
32
33
08
00
03
07
3F
39
2A
11
3E
0F
3E
07
09
0F
06
35
38
37
36
0A
16
30
00
07
3E
17
0E
3A
07
06
38
36
11
30
09
0F
38
36
02
35
1E
06
0A
0F
11
00
39
07
09
36
01
06
36
36
00
32
06
38
3E
15
1E
0A
32
12
0A
36
38
30
0F
17
01
00
02
02
05
