00000000000000000000000000000000
00000000000000000000000000000000
00000000000000000000000000000000
00000000000000000000000000000000
00000000000000000000000000000000
00000000000000000000000000000000
00000000000000000000000000000000
00000000000000000000000000000000
00000000000000000000000000000000
00000000000000000000000000000000
00000000000000000000000000000000
00000000000000000000000000000000
0F440004400F0400000DD1C010470F44
00000000000000000000000000000000
00000000000000000000000000000000
00000000000000000000000000000000
43440004430304000001D1C010430F44
00000000000000000000000000000000
43440004430304000001D1C010440F44
00000000000000000000000000000000
00000000000000000000000000000000
00000000000000000000000000000000
4F440004400304000001D1C010400F44
00000000000000000000000000000000
00000000000000000000000000000000
00000000000000000000000000000000
00000000000000000000000000000000
00000000000000000000000000000000
00000000000000000000000000000000
00000000000000000000000000000000
00000000000000000000000000000040
00000000000000000000000000000000
00000000000000000000000000000000
00000000000000000000000000000000
00000000000000000000000000000000
00000000000000000000000000000000
00000000000000000000000000000000
00000000000000000000000000000000
00000000000000000000000000000000
00000000000000000000000000000000
00000000000000000000000000000000
00000000000000000000000000000000
0000000C000000000000000000000000
00000000000000000000000000000000
4F440004530304000001D1C010440F44
00000000000000000000000000000000
00000000000000000000000000000000
00000000000000000000000000000000
00000000000000000000000000000000
00000000000000000000000000000C00
00000000000000000000000000000000
00000000000000000000000000000000
00000000000000000000000000000000
00000004000000000000000000000000
00000000000000000000000000000000
00000000000000000000000000000000
00000004000000000000000000000000
00000000000000000000000000000000
00000000000000000000000000000000
00000000000000000000000000000000
00000000000000000000000000000000
00000000000000000000000000000000
00000000000000000000000000000000
43440004430F0400000DD1C0D0430F44
