03F43570000000000000
0030C0100000000030C0
0C00CC30CC0000004103
00000000000000000000
000000050000000D4000
00000C0300000000C000
10000000000010400C00
00001041500000000014
000000050F0400000000
00040000000000000000
00000000000000000000
0000000000000000004C
00000000400C0C1D4040
FC10300C000440007003
000005000301CF3C1403
00000000000000000000
00000000000000000000
00000000000000000000
00000000000000000000
00000000000000000000
00000000000000000000
00000000000000000000
00000000000000000000
00000000000000000000
00000000000000000000
00000000000000000000
00000000000000000000
00000000000000000000
00000000000000000000
00000000000000000000
D0003400000000000F00
00F00000000010C0000D
3C0000000003C00300C0
3F403F0000000000000C
00030000000003300040
00000000000000000440
00000000004000000000
00000000000000000000
40000000030000000000
00000000010000001555
00000000000000000000
CC0CC5430C0140000014
00000000000C0C0C0700
F003F00FC44000000033
00011410500CC0005007
00000000000000000000
00000000000000000000
00000000000000000000
00000000000000000000
00000000000000000000
00000000000000000000
00000000000000000000
00000000000000000000
00000000000000000000
00000000000000000000
00000000000000000000
00000000000000000000
00000000000000000000
00000000000000000000
00000000000000000000
