D0003400000000000000
00C0000040C000003C01
0C04000000C001000000
3F7FF300000000000030
000000000000000C0050
C0000CF0000000000004
05000000000101400000
000C00C0100000003000
40030003000100000000
00000000000000001555
00000000000000000000
003FC500303100000C10
0000000000000C030000
01000040C404000C0003
000100100030C30C0400
00000000010000000000
00000000000000000000
00000000000000000000
00000000000000000000
000000000000000C0000
00000000000000000000
00000000000000000000
00000000000000000000
00000000000000000000
00000000000000000000
00000000000000100000
00000000000000000000
00000000000000000000
C0000000000000000000
00000000000000000000
310FD310000000000100
00040000000000000000
04004400010100000000
00D55500000000030000
0CC00000000000000030
0000C4000000000000C0
00000000000704003400
00010000000000000000
C0000000000000000000
00000000000000003FFF
00000000000000000000
00000F00000C00000000
00000000000040F410D3
477110011030C0040001
00003C30010000000D0D
D3003400000000000040
C33CC10C00CC000000C1
00000330000300000100
3F403F00000003000000
00000000300000000040
CC1033C3000000040040
30000000030000000C00
000303C0C00300000000
400000000F3000000000
00000000000000001550
00000000000000000000
0C30C5030C0140000014
0C4000000CC0CC1C3370
F1000040C451400C3030
00000050103FC30D4044
