311FDC00400004000000
00100000000000500000
04000014010000C00F00
10D01500001000000300
0C0000C000000C03F000
00000000000000000000
33000004000400000400
00000000000000000000
C0000000040000000000
00000000000003003FFF
00000000000300000000
00000000000C000000C0
000000001004440010C0
57400000100000001400
00000000040000000001
00000000000000000000
00000000000000000000
00000000000000000000
00000000000000000000
00000000000000000000
00000000000000000000
00000000000000000000
00000000000000000000
00000000000000000000
00000000000000000000
00000000000000000000
00000000000000000000
00000000000000000000
00000000000000000000
00000000000000000000
31000000000000000030
004140C00000400C0000
04C00000000003353CC0
00000000000000000300
0000000C300000030000
00000100000000300000
CC000030000033C00000
000004C0000C00000000
00000001300003000003
00000000000000000000
00000000000000000000
00100000000000000000
00001000C00003F530C0
433100000C0000030000
0003000000D171C40001
00000000000000000000
00000000000000000000
00000000000000000000
00000000000000000000
00000000000000000000
00000000000000000000
00000000000000000000
00000000000000000000
00000000000000000000
00000000000000000000
00000000000000000000
00000000000000000000
00000000000000000000
00000000000000000000
00000000000000000000
