27
0C
26
0A
0E
39
34
24
29
19
3B
09
3E
0E
1A
36
07
1B
12
06
0F
09
31
02
29
39
25
15
16
32
12
31
1A
02
0F
2A
0A
32
29
24
0E
3A
17
01
35
09
28
33
31
29
34
06
04
1B
08
19
2B
09
1A
2F
3E
0D
2F
2E
24
34
00
08
0E
19
2E
14
11
10
00
36
16
09
38
38
36
2B
27
27
03
19
0E
08
14
35
0E
2A
05
0B
1A
33
0C
11
3E
32
33
0E
31
17
11
01
18
37
30
0A
38
19
2D
2A
16
1A
2D
10
03
24
32
33
29
37
2D
28
16
18
2A
0E
17
17
12
34
27
34
11
25
27
1C
28
03
35
18
12
36
03
3B
3D
39
12
07
29
30
32
34
15
17
19
17
